{
  "version": "1.0",
  "truncation": null,
  "padding": null,
  "added_tokens": [
    {
      "id": 0,
      "content": "<pad>",
      "single_word": false,
      "lstrip": false,
      "rstrip": false,
      "normalized": false,
      "special": true
    },
    {
      "id": 1,
      "content": "<unk>",
      "single_word": false,
      "lstrip": false,
      "rstrip": false,
      "normalized": false,
      "special": true
    },
    {
      "id": 2,
      "content": "<bos>",
      "single_word": false,
      "lstrip": false,
      "rstrip": false,
      "normalized": false,
      "special": true
    },
    {
      "id": 3,
      "content": "<eos>",
      "single_word": false,
      "lstrip": false,
      "rstrip": false,
      "normalized": false,
      "special": true
    }
  ],
  "normalizer": null,
  "pre_tokenizer": {
    "type": "ByteLevel",
    "add_prefix_space": false,
    "trim_offsets": true,
    "use_regex": true
  },
  "post_processor": null,
  "decoder": {
    "type": "ByteLevel",
    "add_prefix_space": true,
    "trim_offsets": true,
    "use_regex": true
  },
  "model": {
    "type": "BPE",
    "dropout": null,
    "unk_token": "<unk>",
    "continuing_subword_prefix": null,
    "end_of_word_suffix": null,
    "fuse_unk": false,
    "byte_fallback": false,
    "ignore_merges": false,
    "vocab": {
      "<pad>": 0,
      "<unk>": 1,
      "<bos>": 2,
      "<eos>": 3,
      "!": 4,
      "\"": 5,
      "#": 6,
      "$": 7,
      "&": 8,
      "'": 9,
      "(": 10,
      ")": 11,
      "*": 12,
      "+": 13,
      ",": 14,
      "-": 15,
      ".": 16,
      "/": 17,
      "0": 18,
      "1": 19,
      "2": 20,
      "3": 21,
      "4": 22,
      "5": 23,
      "6": 24,
      "7": 25,
      "8": 26,
      "9": 27,
      ":": 28,
      ";": 29,
      "<": 30,
      ">": 31,
      "?": 32,
      "A": 33,
      "B": 34,
      "C": 35,
      "D": 36,
      "E": 37,
      "F": 38,
      "G": 39,
      "H": 40,
      "I": 41,
      "J": 42,
      "K": 43,
      "L": 44,
      "M": 45,
      "N": 46,
      "O": 47,
      "P": 48,
      "Q": 49,
      "R": 50,
      "S": 51,
      "T": 52,
      "U": 53,
      "V": 54,
      "W": 55,
      "X": 56,
      "Y": 57,
      "Z": 58,
      "[": 59,
      "_": 60,
      "`": 61,
      "a": 62,
      "b": 63,
      "c": 64,
      "d": 65,
      "e": 66,
      "f": 67,
      "g": 68,
      "h": 69,
      "i": 70,
      "j": 71,
      "k": 72,
      "l": 73,
      "m": 74,
      "n": 75,
      "o": 76,
      "p": 77,
      "q": 78,
      "r": 79,
      "s": 80,
      "t": 81,
      "u": 82,
      "v": 83,
      "w": 84,
      "x": 85,
      "y": 86,
      "z": 87,
      "|": 88,
      "¡": 89,
      "£": 90,
      "¤": 91,
      "¥": 92,
      "¦": 93,
      "¨": 94,
      "©": 95,
      "ª": 96,
      "«": 97,
      "®": 98,
      "¯": 99,
      "°": 100,
      "±": 101,
      "³": 102,
      "´": 103,
      "µ": 104,
      "¶": 105,
      "·": 106,
      "¸": 107,
      "¹": 108,
      "º": 109,
      "»": 110,
      "¼": 111,
      "½": 112,
      "¾": 113,
      "¿": 114,
      "Â": 115,
      "Ã": 116,
      "â": 117,
      "ã": 118,
      "ä": 119,
      "å": 120,
      "æ": 121,
      "ç": 122,
      "è": 123,
      "é": 124,
      "ï": 125,
      "ð": 126,
      "Ġ": 127,
      "Ģ": 128,
      "ģ": 129,
      "Ĥ": 130,
      "ĥ": 131,
      "Ħ": 132,
      "ħ": 133,
      "Ĩ": 134,
      "ĩ": 135,
      "Ī": 136,
      "ī": 137,
      "Ĭ": 138,
      "ĭ": 139,
      "Į": 140,
      "į": 141,
      "İ": 142,
      "ı": 143,
      "ĳ": 144,
      "Ĵ": 145,
      "ĵ": 146,
      "Ķ": 147,
      "ķ": 148,
      "ĸ": 149,
      "ĺ": 150,
      "Ļ": 151,
      "ļ": 152,
      "Ľ": 153,
      "ľ": 154,
      "Ŀ": 155,
      "Ł": 156,
      "ł": 157,
      "Ń": 158,
      "Ġt": 159,
      "he": 160,
      "Ġa": 161,
      "Ġs": 162,
      "nd": 163,
      "Ġw": 164,
      "Ġthe": 165,
      "ed": 166,
      "Ġb": 167,
      "Ġto": 168,
      "Ġand": 169,
      "Ġh": 170,
      "Ġf": 171,
      "in": 172,
      "ĠT": 173,
      "Ġwa": 174,
      "re": 175,
      "it": 176,
      "ou": 177,
      "Ġl": 178,
      "Ġd": 179,
      "Ġc": 180,
      "Ġp": 181,
      "ay": 182,
      "Ġm": 183,
      "er": 184,
      "Ġwas": 185,
      "om": 186,
      "ĠThe": 187,
      "Ġhe": 188,
      "is": 189,
      "Ġn": 190,
      "ar": 191,
      "im": 192,
      "on": 193,
      "Ġsa": 194,
      "id": 195,
      "ll": 196,
      "Ġha": 197,
      "Ġg": 198,
      "at": 199,
      "ĠS": 200,
      "ing": 201,
      "ot": 202,
      "en": 203,
      "an": 204,
      "le": 205,
      "or": 206,
      "end": 207,
      "ir": 208,
      "of": 209,
      "am": 210,
      "et": 211,
      "ĠH": 212,
      "Ġit": 213,
      "Ġth": 214,
      "ig": 215,
      "ĠThey": 216,
      "il": 217,
      "Ġin": 218,
      "Ġpl": 219,
      "ĠHe": 220,
      "Ġ\"": 221,
      "ow": 222,
      "ri": 223,
      "ver": 224,
      "ut": 225,
      "Ġbe": 226,
      "Ġu": 227,
      "Ġplay": 228,
      "Ġsaid": 229,
      "ith": 230,
      "Ġday": 231,
      "pp": 232,
      "Ġwith": 233,
      "On": 234,
      "Ġy": 235,
      "oo": 236,
      "ked": 237,
      "Ġr": 238,
      "ex": 239,
      "Ġher": 240,
      "ce": 241,
      "ĠI": 242,
      "ĠShe": 243,
      "ld": 244,
      "ĠTim": 245,
      "Ġhis": 246,
      "Ġst": 247,
      "ke": 248,
      "Ġbig": 249,
      "nt": 250,
      "ck": 251,
      "Ġyou": 252,
      "very": 253,
      "st": 254,
      "ve": 255,
      "Ġon": 256,
      "un": 257,
      "Ġhapp": 258,
      "riend": 259,
      "Ġfriend": 260,
      "all": 261,
      "ily": 262,
      "ĠL": 263,
      "ext": 264,
      "Ġthey": 265,
      "oft": 266,
      "Ġwe": 267,
      "Ġhad": 268,
      "Ġnot": 269,
      "Ġli": 270,
      "Ġup": 271,
      "her": 272,
      "Ġwant": 273,
      "Ġof": 274,
      "ad": 275,
      "itt": 276,
      "<|": 277,
      "|>": 278,
      "endoft": 279,
      "endoftext": 280,
      "se": 281,
      "ĠB": 282,
      "Ġdo": 283,
      "Ġe": 284,
      "Ġhappy": 285,
      "ent": 286,
      "Ġvery": 287,
      "ĠM": 288,
      "es": 289,
      "Ġthat": 290,
      "Ġsaw": 291,
      "One": 292,
      "'s": 293,
      "ould": 294,
      "Ġfor": 295,
      "Ġmom": 296,
      "Ġsh": 297,
      "ittle": 298,
      "Ġlittle": 299,
      "Ġshe": 300,
      "ime": 301,
      "ch": 302,
      "Ġnam": 303,
      ".\"": 304,
      "Ġtime": 305,
      "Ġk": 306,
      "Ġso": 307,
      "ound": 308,
      "Ġthere": 309,
      "Ġnamed": 310,
      "Ġsm": 311,
      "Ġbo": 312,
      "ĠLily": 313,
      "Ġwere": 314,
      "Ġne": 315,
      "Ġwanted": 316,
      "out": 317,
      "Ġbut": 318,
      "Ġfriends": 319,
      "The": 320,
      "ved": 321,
      "ht": 322,
      "!\"": 323,
      "ĠTom": 324,
      "ird": 325,
      "el": 326,
      "al": 327,
      "ake": 328,
      "Ġan": 329,
      "Ġbird": 330,
      "ome": 331,
      "Ġtoo": 332,
      "ug": 333,
      "ĠIt": 334,
      "ide": 335,
      "Ġwent": 336,
      "Ġwh": 337,
      "Ġhel": 338,
      "Once": 339,
      "ue": 340,
      "Ġis": 341,
      "Ġall": 342,
      "Ġhelp": 343,
      "Ġloo": 344,
      "Ġlo": 345,
      "ĠA": 346,
      "Ġupon": 347,
      "ter": 348,
      "ry": 349,
      "ore": 350,
      "Ġfun": 351,
      "get": 352,
      "ind": 353,
      "ill": 354,
      "Ġtoy": 355,
      "ame": 356,
      "Ġas": 357,
      "Ġat": 358,
      "Ġj": 359,
      "ra": 360,
      "Ġdid": 361,
      "gether": 362,
      "Ġo": 363,
      "Ġre": 364,
      "ur": 365,
      "Ġtogether": 366,
      "Ġse": 367,
      "ack": 368,
      "Ġcat": 369,
      "Ġtre": 370,
      "ly": 371,
      "ood": 372,
      "ic": 373,
      "ted": 374,
      "Ġdog": 375,
      "Ġcould": 376,
      "Ġcan": 377,
      "Ġtheir": 378,
      "ard": 379,
      "ark": 380,
      "ec": 381,
      "Ġgir": 382,
      "Ġhim": 383,
      "Ġplayed": 384,
      "Ġgirl": 385,
      "way": 386,
      "?\"": 387,
      "Ġball": 388,
      "Ġro": 389,
      "Ġgo": 390,
      "my": 391,
      "Ġout": 392,
      "hed": 393,
      "Ġare": 394,
      "ain": 395,
      "Ġkn": 396,
      "Ġfr": 397,
      "Ġle": 398,
      "'t": 399,
      "hen": 400,
      "Ġthem": 401,
      "um": 402,
      "ax": 403,
      "Ġsad": 404,
      "Ġtree": 405,
      "ul": 406,
      "Ġboy": 407,
      "Ġhave": 408,
      "other": 409,
      "Ġman": 410,
      "Ġcl": 411,
      "Ġloved": 412,
      "Ġlooked": 413,
      "oug": 414,
      "Ġfound": 415,
      "Ġsp": 416,
      "Ġstar": 417,
      "ĠSue": 418,
      "one": 419,
      "hing": 420,
      "Ġsc": 421,
      "Ġback": 422,
      "own": 423,
      "ĠMax": 424,
      "Ġlike": 425,
      "are": 426,
      "side": 427,
      "Ġme": 428,
      "Ġbec": 429,
      "ful": 430,
      "ight": 431,
      "ong": 432,
      "Ġcar": 433,
      "Ġpark": 434,
      "op": 435,
      "elt": 436,
      "Ġliked": 437,
      "ĠOne": 438,
      "Ġwould": 439,
      "round": 440,
      "Ġmake": 441,
      "Ġla": 442,
      "Ġfelt": 443,
      "Ġfa": 444,
      "You": 445,
      "ĠW": 446,
      "omet": 447,
      "Ġsee": 448,
      "ĠBut": 449,
      "ell": 450,
      "ouse": 451,
      "Ġasked": 452,
      "Ġno": 453,
      "Ġnew": 454,
      "ĠBen": 455,
      "ag": 456,
      "ared": 457,
      "Ġstarted": 458,
      "ice": 459,
      "Ġcame": 460,
      "ĠSam": 461,
      "Ġal": 462,
      "Ġother": 463,
      "ought": 464,
      "iled": 465,
      "Ġsomet": 466,
      "Ġag": 467,
      "Ġgood": 468,
      "Ġsmall": 469,
      "ss": 470,
      "Ġbr": 471,
      "Ġsay": 472,
      "Ġsmiled": 473,
      "ings": 474,
      "ade": 475,
      "ried": 476,
      "ob": 477,
      "pot": 478,
      "Ġwor": 479,
      "Ġaway": 480,
      "Ġfind": 481,
      "Ġex": 482,
      "Ġput": 483,
      "Ġsomething": 484,
      "ty": 485,
      "Ġmade": 486,
      "Ġwhat": 487,
      "ia": 488,
      "Ġthought": 489,
      "Ġhome": 490,
      "ened": 491,
      "Ġfrom": 492,
      "Ġplaying": 493,
      "Ġco": 494,
      "ook": 495,
      "Ġwal": 496,
      "Ġevery": 497,
      "Ġmu": 498,
      "ach": 499,
      "ĠSpot": 500,
      "Ġran": 501,
      "uc": 502,
      "arn": 503,
      "ĠF": 504,
      "ĠJ": 505,
      "ile": 506,
      "ie": 507,
      "Ġagain": 508,
      "Ġhouse": 509,
      "Ġsome": 510,
      "dd": 511,
      "ave": 512,
      "Ġdown": 513,
      "Ġlaug": 514,
      "Ġfl": 515,
      "king": 516,
      "Ġscared": 517,
      "ure": 518,
      "ny": 519,
      "Ġtook": 520,
      "Ġpr": 521,
      "ick": 522,
      "Ġbox": 523,
      "ĠYou": 524,
      "if": 525,
      "Ġlearn": 526,
      "Ġwill": 527,
      "ep": 528,
      "Ġaround": 529,
      "Ġtoys": 530,
      "ab": 531,
      "Ġthings": 532,
      "ret": 533,
      "Ġbl": 534,
      "Ġmy": 535,
      "Ġyour": 536,
      "uck": 537,
      "Ġsun": 538,
      "oud": 539,
      "Ġlived": 540,
      "Ġwhen": 541,
      "Ġsw": 542,
      "Ġfe": 543,
      "ish": 544,
      "Ġthen": 545,
      "Ġch": 546,
      "as": 547,
      "pped": 548,
      ",\"": 549,
      "Ġab": 550,
      "us": 551,
      "ank": 552,
      "ĠMia": 553,
      "Ġget": 554,
      "Tim": 555,
      "Ġlot": 556,
      "oth": 557,
      "ap": 558,
      "ump": 559,
      "Th": 560,
      "ucy": 561,
      "ist": 562,
      "Ġsays": 563,
      "Ġtried": 564,
      "Ġknow": 565,
      "Ġgot": 566,
      "ited": 567,
      "ust": 568,
      "Ġkne": 569,
      "Ġwho": 570,
      "Ġmany": 571,
      "nder": 572,
      "Ġabout": 573,
      "Lily": 574,
      "Ġint": 575,
      "Ġpret": 576,
      "Ġany": 577,
      "Ġdec": 578,
      "ise": 579,
      "ĠD": 580,
      "Ġred": 581,
      "ive": 582,
      "Ġknew": 583,
      "ace": 584,
      "ous": 585,
      "Ġmore": 586,
      "Ġpic": 587,
      "Ġv": 588,
      "Ġhug": 589,
      "qu": 590,
      "Ġpo": 591,
      "ally": 592,
      "Ġcare": 593,
      "au": 594,
      "Ġwater": 595,
      "fter": 596,
      "Ġbest": 597,
      "Ġbecame": 598,
      "Ġlearned": 599,
      "ĠLucy": 600,
      "urp": 601,
      "Ġop": 602,
      "Ġexc": 603,
      "ways": 604,
      "Ġoutside": 605,
      "ause": 606,
      "Ġgre": 607,
      "âĢ": 608,
      "Ġalways": 609,
      "Ġlaughed": 610,
      "Ġshow": 611,
      "Ġlook": 612,
      "Ġdecid": 613,
      "ĠBob": 614,
      "Ġroom": 615,
      "Ġun": 616,
      "Ġdecided": 617,
      "Ġho": 618,
      "ite": 619,
      "Ġeat": 620,
      "Ġbecause": 621,
      "Ġboth": 622,
      "fe": 623,
      "ĠSo": 624,
      "ĠAnd": 625,
      "ant": 626,
      "Ġinto": 627,
      "ĠMom": 628,
      "Ġjump": 629,
      "udd": 630,
      "ers": 631,
      "Ġdad": 632,
      "Ġpe": 633,
      "Ġke": 634,
      "Ġone": 635,
      "nn": 636,
      "They": 637,
      "Ġexcited": 638,
      "Ġnice": 639,
      "Ġthis": 640,
      "Ġfast": 641,
      "Ġfeel": 642,
      "Ġlong": 643,
      "Ġrun": 644,
      "ĠE": 645,
      "Yes": 646,
      "Tom": 647,
      "Ġsk": 648,
      "Ġam": 649,
      "urpr": 650,
      "Ġtold": 651,
      "our": 652,
      "Ġtr": 653,
      "Ġsurpr": 654,
      "Ġinside": 655,
      "Ġmo": 656,
      "ink": 657,
      "ull": 658,
      "Ġpretty": 659,
      "iny": 660,
      "Ġsor": 661,
      "Ġtake": 662,
      "Ġgra": 663,
      "Wh": 664,
      "Ġsl": 665,
      "nna": 666,
      "og": 667,
      "Ġeach": 668,
      "lew": 669,
      "Ġgave": 670,
      "Ġmuch": 671,
      "Ġstr": 672,
      "Ġhow": 673,
      "ged": 674,
      "Ġrock": 675,
      "imal": 676,
      "Ġanimal": 677,
      "Ġor": 678,
      "Ġneed": 679,
      "Ġtow": 680,
      "But": 681,
      "Ġthan": 682,
      "etter": 683,
      "ara": 684,
      "Ġold": 685,
      "ven": 686,
      "Ġunder": 687,
      "ĠC": 688,
      "Ġsorry": 689,
      "ge": 690,
      "ess": 691,
      "urt": 692,
      "ised": 693,
      "Ġwalked": 694,
      "ro": 695,
      "Ġhand": 696,
      "Ġcle": 697,
      "and": 698,
      "Ġclo": 699,
      "Ġbear": 700,
      "ast": 701,
      "Ġfish": 702,
      "ase": 703,
      "urn": 704,
      "Ġjust": 705,
      "Ġkind": 706,
      "here": 707,
      "ĠWe": 708,
      "pl": 709,
      "Ġdidn": 710,
      "ĠHis": 711,
      "Ġwat": 712,
      "Ġflow": 713,
      "Ġhappened": 714,
      "Ġte": 715,
      "Ġtry": 716,
      "Ġfood": 717,
      "Ġide": 718,
      "Ġsky": 719,
      "Ġanimals": 720,
      "Ġsn": 721,
      "Ġlist": 722,
      "rom": 723,
      "Ġhig": 724,
      "Ġnear": 725,
      "ine": 726,
      "Ġfi": 727,
      "ched": 728,
      "ving": 729,
      "ff": 730,
      "ĠAmy": 731,
      "Ġidea": 732,
      "Ġus": 733,
      "Ġbug": 734,
      "Ġtw": 735,
      "Ġbetter": 736,
      "Ġheard": 737,
      "Ġits": 738,
      "Ġlet": 739,
      "gry": 740,
      "Ġen": 741,
      "able": 742,
      "ate": 743,
      "pec": 744,
      "Ġshare": 745,
      "Ġstor": 746,
      "Ġif": 747,
      "Mom": 748,
      "Ġfly": 749,
      "ĠTh": 750,
      "Thank": 751,
      "ial": 752,
      "Ġflew": 753,
      "lf": 754,
      "more": 755,
      "Ġanymore": 756,
      "Ġcareful": 757,
      "Ġspec": 758,
      "Ġspecial": 759,
      "Ġlots": 760,
      "Ġcom": 761,
      "Ġdan": 762,
      "Ġnever": 763,
      "ion": 764,
      "Ġby": 765,
      "Ġfo": 766,
      "Ġdon": 767,
      "Ġwind": 768,
      "ream": 769,
      "Ġtal": 770,
      "Ġlove": 771,
      "Ġclean": 772,
      "Ġend": 773,
      "Ġbu": 774,
      "Ġgr": 775,
      "ĠThen": 776,
      "Ġfore": 777,
      "Ġshiny": 778,
      "udden": 779,
      "Ġeven": 780,
      "rm": 781,
      "ort": 782,
      "ber": 783,
      "Ġover": 784,
      "ople": 785,
      "Ġcake": 786,
      "ak": 787,
      "Ġmag": 788,
      "Ġhard": 789,
      "Ġbook": 790,
      "uddenly": 791,
      "Ġturn": 792,
      "Ġcol": 793,
      "imb": 794,
      "Ġsafe": 795,
      "ĠAnna": 796,
      "Ġbad": 797,
      "Ġafter": 798,
      "Ġfam": 799,
      "ĠEvery": 800,
      "Let": 801,
      "Ġclimb": 802,
      "ady": 803,
      "Ġdoor": 804,
      "Ġhigh": 805,
      "Ġhurt": 806,
      "Ġgl": 807,
      "Ġcome": 808,
      "Ġcu": 809,
      "Ġsurprised": 810,
      "pected": 811,
      "Ġproud": 812,
      "Ġground": 813,
      "bb": 814,
      "Ġopened": 815,
      "Ġpicked": 816,
      "Ġpeople": 817,
      "arden": 818,
      "Ġgarden": 819,
      "Ġche": 820,
      "ild": 821,
      "expected": 822,
      "Ġunexpected": 823,
      "Ġloud": 824,
      "Ġim": 825,
      "Ġblue": 826,
      "'m": 827,
      "Ġway": 828,
      "As": 829,
      "Ġgive": 830,
      "Ġthanked": 831,
      "ĠFrom": 832,
      "Ġstill": 833,
      "Ġhugged": 834,
      "Ġever": 835,
      "Ġcolor": 836,
      "ĠHer": 837,
      "Ġfar": 838,
      "Ġcall": 839,
      "ail": 840,
      "ip": 841,
      "ummy": 842,
      "No": 843,
      "iz": 844,
      "ĠWhen": 845,
      "ĠK": 846,
      "Ġoff": 847,
      "uff": 848,
      "ough": 849,
      "Ġmagic": 850,
      "Ġkid": 851,
      "ĠSara": 852,
      "Ġjumped": 853,
      "Ġfamily": 854,
      "age": 855,
      "Ġsmile": 856,
      "Ġpar": 857,
      "Ġshould": 858,
      "ool": 859,
      "les": 860,
      "Ġwalk": 861,
      "kay": 862,
      "Ġqu": 863,
      "ĠIn": 864,
      "hes": 865,
      "Ġplace": 866,
      "Ġnow": 867,
      "Ġstay": 868,
      "ture": 869,
      "Ġforest": 870,
      "em": 871,
      "Ġgreat": 872,
      "Ġunt": 873,
      "aut": 874,
      "itty": 875,
      "ct": 876,
      "Ġsto": 877,
      "Ġstrong": 878,
      "ane": 879,
      "ĠP": 880,
      "Ġuntil": 881,
      "Ġbeaut": 882,
      "Ġbro": 883,
      "dy": 884,
      "Ġstick": 885,
      "ning": 886,
      "Ġbra": 887,
      "Ġnext": 888,
      "lease": 889,
      "Ġsqu": 890,
      "Ġhappily": 891,
      "Ġfrog": 892,
      "Ġkids": 893,
      "oon": 894,
      "aking": 895,
      "oy": 896,
      "th": 897,
      "Ġapp": 898,
      "iful": 899,
      "ies": 900,
      "Ġbeautiful": 901,
      "Ġshowed": 902,
      "Ġwhile": 903,
      "unny": 904,
      "Ġstory": 905,
      "Ġlisten": 906,
      "Ġclos": 907,
      "Ġboat": 908,
      "Ġpicture": 909,
      "be": 910,
      "Ġhelped": 911,
      "Ġimp": 912,
      "Ġtown": 913,
      "Ġtra": 914,
      "rel": 915,
      "Ġrain": 916,
      "Ġdra": 917,
      "Ġbeing": 918,
      "ress": 919,
      "pt": 920,
      "Ġeveryone": 921,
      "ary": 922,
      "ree": 923,
      "Ġad": 924,
      "It": 925,
      "Ġmor": 926,
      "Ġwo": 927,
      "Ġcalled": 928,
      "Ġmet": 929,
      "uffy": 930,
      "Ġstopped": 931,
      "Ġhat": 932,
      "Now": 933,
      "Can": 934,
      "Ġrem": 935,
      "Ġgame": 936,
      "He": 937,
      "Ġyummy": 938,
      "Ġsoft": 939,
      "Ġopen": 940,
      "by": 941,
      "Ġtruck": 942,
      "When": 943,
      "Ġmouse": 944,
      "Ġbed": 945,
      "Ġcry": 946,
      "vent": 947,
      "Ġkeep": 948,
      "Ġangry": 949,
      "Ġwatch": 950,
      "ĠKitty": 951,
      "ger": 952,
      "Ġate": 953,
      "ĠLet": 954,
      "Ġcouldn": 955,
      "Ġdoll": 956,
      "Ġbrave": 957,
      "ĠWh": 958,
      "Ġwarm": 959,
      "ĠSally": 960,
      "so": 961,
      "Ġde": 962,
      "ĠR": 963,
      "fore": 964,
      "dded": 965,
      "Ġalso": 966,
      "Ġlost": 967,
      "Ġfell": 968,
      "ished": 969,
      "bit": 970,
      "Ġface": 971,
      "Ġnoise": 972,
      "ble": 973,
      "abbit": 974,
      "Ġtwo": 975,
      "Ġleave": 976,
      "Ġflowers": 977,
      "Ġgreen": 978,
      "gan": 979,
      "Ġwhere": 980,
      "What": 981,
      "ock": 982,
      "owl": 983,
      "luffy": 984,
      "irst": 985,
      "Ġrabbit": 986,
      "iss": 987,
      "Ġslide": 988,
      "Ġsoon": 989,
      "self": 990,
      "az": 991,
      "Ġpus": 992,
      "illy": 993,
      "irrel": 994,
      "Ġhands": 995,
      "Ġhear": 996,
      "Ġbefore": 997,
      "Ġexpl": 998,
      "Ġsat": 999
    },
    "merges": [
      [
        "Ġ",
        "t"
      ],
      [
        "h",
        "e"
      ],
      [
        "Ġ",
        "a"
      ],
      [
        "Ġ",
        "s"
      ],
      [
        "n",
        "d"
      ],
      [
        "Ġ",
        "w"
      ],
      [
        "Ġt",
        "he"
      ],
      [
        "e",
        "d"
      ],
      [
        "Ġ",
        "b"
      ],
      [
        "Ġt",
        "o"
      ],
      [
        "Ġa",
        "nd"
      ],
      [
        "Ġ",
        "h"
      ],
      [
        "Ġ",
        "f"
      ],
      [
        "i",
        "n"
      ],
      [
        "Ġ",
        "T"
      ],
      [
        "Ġw",
        "a"
      ],
      [
        "r",
        "e"
      ],
      [
        "i",
        "t"
      ],
      [
        "o",
        "u"
      ],
      [
        "Ġ",
        "l"
      ],
      [
        "Ġ",
        "d"
      ],
      [
        "Ġ",
        "c"
      ],
      [
        "Ġ",
        "p"
      ],
      [
        "a",
        "y"
      ],
      [
        "Ġ",
        "m"
      ],
      [
        "e",
        "r"
      ],
      [
        "Ġwa",
        "s"
      ],
      [
        "o",
        "m"
      ],
      [
        "ĠT",
        "he"
      ],
      [
        "Ġ",
        "he"
      ],
      [
        "i",
        "s"
      ],
      [
        "Ġ",
        "n"
      ],
      [
        "a",
        "r"
      ],
      [
        "i",
        "m"
      ],
      [
        "o",
        "n"
      ],
      [
        "Ġs",
        "a"
      ],
      [
        "i",
        "d"
      ],
      [
        "l",
        "l"
      ],
      [
        "Ġh",
        "a"
      ],
      [
        "Ġ",
        "g"
      ],
      [
        "a",
        "t"
      ],
      [
        "Ġ",
        "S"
      ],
      [
        "in",
        "g"
      ],
      [
        "o",
        "t"
      ],
      [
        "e",
        "n"
      ],
      [
        "a",
        "n"
      ],
      [
        "l",
        "e"
      ],
      [
        "o",
        "r"
      ],
      [
        "e",
        "nd"
      ],
      [
        "i",
        "r"
      ],
      [
        "o",
        "f"
      ],
      [
        "a",
        "m"
      ],
      [
        "e",
        "t"
      ],
      [
        "Ġ",
        "H"
      ],
      [
        "Ġ",
        "it"
      ],
      [
        "Ġt",
        "h"
      ],
      [
        "i",
        "g"
      ],
      [
        "ĠThe",
        "y"
      ],
      [
        "i",
        "l"
      ],
      [
        "Ġ",
        "in"
      ],
      [
        "Ġp",
        "l"
      ],
      [
        "ĠH",
        "e"
      ],
      [
        "Ġ",
        "\""
      ],
      [
        "o",
        "w"
      ],
      [
        "r",
        "i"
      ],
      [
        "v",
        "er"
      ],
      [
        "u",
        "t"
      ],
      [
        "Ġb",
        "e"
      ],
      [
        "Ġ",
        "u"
      ],
      [
        "Ġpl",
        "ay"
      ],
      [
        "Ġsa",
        "id"
      ],
      [
        "it",
        "h"
      ],
      [
        "Ġd",
        "ay"
      ],
      [
        "p",
        "p"
      ],
      [
        "Ġw",
        "ith"
      ],
      [
        "O",
        "n"
      ],
      [
        "Ġ",
        "y"
      ],
      [
        "o",
        "o"
      ],
      [
        "k",
        "ed"
      ],
      [
        "Ġ",
        "r"
      ],
      [
        "e",
        "x"
      ],
      [
        "Ġhe",
        "r"
      ],
      [
        "c",
        "e"
      ],
      [
        "Ġ",
        "I"
      ],
      [
        "ĠS",
        "he"
      ],
      [
        "l",
        "d"
      ],
      [
        "ĠT",
        "im"
      ],
      [
        "Ġh",
        "is"
      ],
      [
        "Ġs",
        "t"
      ],
      [
        "k",
        "e"
      ],
      [
        "Ġb",
        "ig"
      ],
      [
        "n",
        "t"
      ],
      [
        "c",
        "k"
      ],
      [
        "Ġy",
        "ou"
      ],
      [
        "ver",
        "y"
      ],
      [
        "s",
        "t"
      ],
      [
        "v",
        "e"
      ],
      [
        "Ġ",
        "on"
      ],
      [
        "u",
        "n"
      ],
      [
        "Ġha",
        "pp"
      ],
      [
        "ri",
        "end"
      ],
      [
        "Ġf",
        "riend"
      ],
      [
        "a",
        "ll"
      ],
      [
        "il",
        "y"
      ],
      [
        "Ġ",
        "L"
      ],
      [
        "ex",
        "t"
      ],
      [
        "Ġthe",
        "y"
      ],
      [
        "of",
        "t"
      ],
      [
        "Ġw",
        "e"
      ],
      [
        "Ġha",
        "d"
      ],
      [
        "Ġn",
        "ot"
      ],
      [
        "Ġl",
        "i"
      ],
      [
        "Ġu",
        "p"
      ],
      [
        "he",
        "r"
      ],
      [
        "Ġwa",
        "nt"
      ],
      [
        "Ġ",
        "of"
      ],
      [
        "a",
        "d"
      ],
      [
        "it",
        "t"
      ],
      [
        "<",
        "|"
      ],
      [
        "|",
        ">"
      ],
      [
        "end",
        "oft"
      ],
      [
        "endoft",
        "ext"
      ],
      [
        "s",
        "e"
      ],
      [
        "Ġ",
        "B"
      ],
      [
        "Ġd",
        "o"
      ],
      [
        "Ġ",
        "e"
      ],
      [
        "Ġhapp",
        "y"
      ],
      [
        "en",
        "t"
      ],
      [
        "Ġ",
        "very"
      ],
      [
        "Ġ",
        "M"
      ],
      [
        "e",
        "s"
      ],
      [
        "Ġth",
        "at"
      ],
      [
        "Ġsa",
        "w"
      ],
      [
        "On",
        "e"
      ],
      [
        "'",
        "s"
      ],
      [
        "ou",
        "ld"
      ],
      [
        "Ġf",
        "or"
      ],
      [
        "Ġm",
        "om"
      ],
      [
        "Ġs",
        "h"
      ],
      [
        "itt",
        "le"
      ],
      [
        "Ġl",
        "ittle"
      ],
      [
        "Ġs",
        "he"
      ],
      [
        "im",
        "e"
      ],
      [
        "c",
        "h"
      ],
      [
        "Ġn",
        "am"
      ],
      [
        ".",
        "\""
      ],
      [
        "Ġt",
        "ime"
      ],
      [
        "Ġ",
        "k"
      ],
      [
        "Ġs",
        "o"
      ],
      [
        "ou",
        "nd"
      ],
      [
        "Ġthe",
        "re"
      ],
      [
        "Ġnam",
        "ed"
      ],
      [
        "Ġs",
        "m"
      ],
      [
        "Ġb",
        "o"
      ],
      [
        "ĠL",
        "ily"
      ],
      [
        "Ġwe",
        "re"
      ],
      [
        "Ġn",
        "e"
      ],
      [
        "Ġwant",
        "ed"
      ],
      [
        "ou",
        "t"
      ],
      [
        "Ġb",
        "ut"
      ],
      [
        "Ġfriend",
        "s"
      ],
      [
        "T",
        "he"
      ],
      [
        "v",
        "ed"
      ],
      [
        "h",
        "t"
      ],
      [
        "!",
        "\""
      ],
      [
        "ĠT",
        "om"
      ],
      [
        "ir",
        "d"
      ],
      [
        "e",
        "l"
      ],
      [
        "a",
        "l"
      ],
      [
        "a",
        "ke"
      ],
      [
        "Ġa",
        "n"
      ],
      [
        "Ġb",
        "ird"
      ],
      [
        "om",
        "e"
      ],
      [
        "Ġto",
        "o"
      ],
      [
        "u",
        "g"
      ],
      [
        "ĠI",
        "t"
      ],
      [
        "id",
        "e"
      ],
      [
        "Ġw",
        "ent"
      ],
      [
        "Ġw",
        "h"
      ],
      [
        "Ġhe",
        "l"
      ],
      [
        "On",
        "ce"
      ],
      [
        "u",
        "e"
      ],
      [
        "Ġ",
        "is"
      ],
      [
        "Ġa",
        "ll"
      ],
      [
        "Ġhel",
        "p"
      ],
      [
        "Ġl",
        "oo"
      ],
      [
        "Ġl",
        "o"
      ],
      [
        "Ġ",
        "A"
      ],
      [
        "Ġup",
        "on"
      ],
      [
        "t",
        "er"
      ],
      [
        "r",
        "y"
      ],
      [
        "o",
        "re"
      ],
      [
        "Ġf",
        "un"
      ],
      [
        "g",
        "et"
      ],
      [
        "i",
        "nd"
      ],
      [
        "i",
        "ll"
      ],
      [
        "Ġto",
        "y"
      ],
      [
        "am",
        "e"
      ],
      [
        "Ġa",
        "s"
      ],
      [
        "Ġa",
        "t"
      ],
      [
        "Ġ",
        "j"
      ],
      [
        "r",
        "a"
      ],
      [
        "Ġd",
        "id"
      ],
      [
        "get",
        "her"
      ],
      [
        "Ġ",
        "o"
      ],
      [
        "Ġ",
        "re"
      ],
      [
        "u",
        "r"
      ],
      [
        "Ġto",
        "gether"
      ],
      [
        "Ġs",
        "e"
      ],
      [
        "a",
        "ck"
      ],
      [
        "Ġc",
        "at"
      ],
      [
        "Ġt",
        "re"
      ],
      [
        "l",
        "y"
      ],
      [
        "oo",
        "d"
      ],
      [
        "i",
        "c"
      ],
      [
        "t",
        "ed"
      ],
      [
        "Ġdo",
        "g"
      ],
      [
        "Ġc",
        "ould"
      ],
      [
        "Ġc",
        "an"
      ],
      [
        "Ġthe",
        "ir"
      ],
      [
        "ar",
        "d"
      ],
      [
        "ar",
        "k"
      ],
      [
        "e",
        "c"
      ],
      [
        "Ġg",
        "ir"
      ],
      [
        "Ġh",
        "im"
      ],
      [
        "Ġplay",
        "ed"
      ],
      [
        "Ġgir",
        "l"
      ],
      [
        "w",
        "ay"
      ],
      [
        "?",
        "\""
      ],
      [
        "Ġb",
        "all"
      ],
      [
        "Ġr",
        "o"
      ],
      [
        "Ġg",
        "o"
      ],
      [
        "m",
        "y"
      ],
      [
        "Ġ",
        "out"
      ],
      [
        "he",
        "d"
      ],
      [
        "Ġa",
        "re"
      ],
      [
        "a",
        "in"
      ],
      [
        "Ġk",
        "n"
      ],
      [
        "Ġf",
        "r"
      ],
      [
        "Ġl",
        "e"
      ],
      [
        "'",
        "t"
      ],
      [
        "he",
        "n"
      ],
      [
        "Ġthe",
        "m"
      ],
      [
        "u",
        "m"
      ],
      [
        "a",
        "x"
      ],
      [
        "Ġsa",
        "d"
      ],
      [
        "Ġtre",
        "e"
      ],
      [
        "u",
        "l"
      ],
      [
        "Ġbo",
        "y"
      ],
      [
        "Ġha",
        "ve"
      ],
      [
        "ot",
        "her"
      ],
      [
        "Ġm",
        "an"
      ],
      [
        "Ġc",
        "l"
      ],
      [
        "Ġlo",
        "ved"
      ],
      [
        "Ġloo",
        "ked"
      ],
      [
        "ou",
        "g"
      ],
      [
        "Ġf",
        "ound"
      ],
      [
        "Ġs",
        "p"
      ],
      [
        "Ġst",
        "ar"
      ],
      [
        "ĠS",
        "ue"
      ],
      [
        "on",
        "e"
      ],
      [
        "h",
        "ing"
      ],
      [
        "Ġs",
        "c"
      ],
      [
        "Ġb",
        "ack"
      ],
      [
        "ow",
        "n"
      ],
      [
        "ĠM",
        "ax"
      ],
      [
        "Ġli",
        "ke"
      ],
      [
        "a",
        "re"
      ],
      [
        "s",
        "ide"
      ],
      [
        "Ġm",
        "e"
      ],
      [
        "Ġbe",
        "c"
      ],
      [
        "f",
        "ul"
      ],
      [
        "ig",
        "ht"
      ],
      [
        "on",
        "g"
      ],
      [
        "Ġc",
        "ar"
      ],
      [
        "Ġp",
        "ark"
      ],
      [
        "o",
        "p"
      ],
      [
        "el",
        "t"
      ],
      [
        "Ġli",
        "ked"
      ],
      [
        "Ġ",
        "One"
      ],
      [
        "Ġw",
        "ould"
      ],
      [
        "r",
        "ound"
      ],
      [
        "Ġm",
        "ake"
      ],
      [
        "Ġl",
        "a"
      ],
      [
        "Ġf",
        "elt"
      ],
      [
        "Ġf",
        "a"
      ],
      [
        "Y",
        "ou"
      ],
      [
        "Ġ",
        "W"
      ],
      [
        "om",
        "et"
      ],
      [
        "Ġse",
        "e"
      ],
      [
        "ĠB",
        "ut"
      ],
      [
        "e",
        "ll"
      ],
      [
        "ou",
        "se"
      ],
      [
        "Ġas",
        "ked"
      ],
      [
        "Ġn",
        "o"
      ],
      [
        "Ġne",
        "w"
      ],
      [
        "ĠB",
        "en"
      ],
      [
        "a",
        "g"
      ],
      [
        "ar",
        "ed"
      ],
      [
        "Ġstar",
        "ted"
      ],
      [
        "i",
        "ce"
      ],
      [
        "Ġc",
        "ame"
      ],
      [
        "ĠS",
        "am"
      ],
      [
        "Ġa",
        "l"
      ],
      [
        "Ġ",
        "other"
      ],
      [
        "oug",
        "ht"
      ],
      [
        "il",
        "ed"
      ],
      [
        "Ġs",
        "omet"
      ],
      [
        "Ġa",
        "g"
      ],
      [
        "Ġg",
        "ood"
      ],
      [
        "Ġsm",
        "all"
      ],
      [
        "s",
        "s"
      ],
      [
        "Ġb",
        "r"
      ],
      [
        "Ġs",
        "ay"
      ],
      [
        "Ġsm",
        "iled"
      ],
      [
        "ing",
        "s"
      ],
      [
        "ad",
        "e"
      ],
      [
        "ri",
        "ed"
      ],
      [
        "o",
        "b"
      ],
      [
        "p",
        "ot"
      ],
      [
        "Ġw",
        "or"
      ],
      [
        "Ġa",
        "way"
      ],
      [
        "Ġf",
        "ind"
      ],
      [
        "Ġ",
        "ex"
      ],
      [
        "Ġp",
        "ut"
      ],
      [
        "Ġsomet",
        "hing"
      ],
      [
        "t",
        "y"
      ],
      [
        "Ġm",
        "ade"
      ],
      [
        "Ġwh",
        "at"
      ],
      [
        "i",
        "a"
      ],
      [
        "Ġth",
        "ought"
      ],
      [
        "Ġh",
        "ome"
      ],
      [
        "en",
        "ed"
      ],
      [
        "Ġfr",
        "om"
      ],
      [
        "Ġplay",
        "ing"
      ],
      [
        "Ġc",
        "o"
      ],
      [
        "oo",
        "k"
      ],
      [
        "Ġwa",
        "l"
      ],
      [
        "Ġe",
        "very"
      ],
      [
        "Ġm",
        "u"
      ],
      [
        "a",
        "ch"
      ],
      [
        "ĠS",
        "pot"
      ],
      [
        "Ġr",
        "an"
      ],
      [
        "u",
        "c"
      ],
      [
        "ar",
        "n"
      ],
      [
        "Ġ",
        "F"
      ],
      [
        "Ġ",
        "J"
      ],
      [
        "i",
        "le"
      ],
      [
        "i",
        "e"
      ],
      [
        "Ġag",
        "ain"
      ],
      [
        "Ġh",
        "ouse"
      ],
      [
        "Ġs",
        "ome"
      ],
      [
        "d",
        "d"
      ],
      [
        "a",
        "ve"
      ],
      [
        "Ġd",
        "own"
      ],
      [
        "Ġla",
        "ug"
      ],
      [
        "Ġf",
        "l"
      ],
      [
        "k",
        "ing"
      ],
      [
        "Ġsc",
        "ared"
      ],
      [
        "u",
        "re"
      ],
      [
        "n",
        "y"
      ],
      [
        "Ġtoo",
        "k"
      ],
      [
        "Ġp",
        "r"
      ],
      [
        "i",
        "ck"
      ],
      [
        "Ġbo",
        "x"
      ],
      [
        "Ġ",
        "You"
      ],
      [
        "i",
        "f"
      ],
      [
        "Ġle",
        "arn"
      ],
      [
        "Ġw",
        "ill"
      ],
      [
        "e",
        "p"
      ],
      [
        "Ġa",
        "round"
      ],
      [
        "Ġtoy",
        "s"
      ],
      [
        "a",
        "b"
      ],
      [
        "Ġth",
        "ings"
      ],
      [
        "re",
        "t"
      ],
      [
        "Ġb",
        "l"
      ],
      [
        "Ġm",
        "y"
      ],
      [
        "Ġyou",
        "r"
      ],
      [
        "u",
        "ck"
      ],
      [
        "Ġs",
        "un"
      ],
      [
        "ou",
        "d"
      ],
      [
        "Ġli",
        "ved"
      ],
      [
        "Ġw",
        "hen"
      ],
      [
        "Ġs",
        "w"
      ],
      [
        "Ġf",
        "e"
      ],
      [
        "is",
        "h"
      ],
      [
        "Ġthe",
        "n"
      ],
      [
        "Ġc",
        "h"
      ],
      [
        "a",
        "s"
      ],
      [
        "pp",
        "ed"
      ],
      [
        ",",
        "\""
      ],
      [
        "Ġa",
        "b"
      ],
      [
        "u",
        "s"
      ],
      [
        "an",
        "k"
      ],
      [
        "ĠM",
        "ia"
      ],
      [
        "Ġg",
        "et"
      ],
      [
        "T",
        "im"
      ],
      [
        "Ġl",
        "ot"
      ],
      [
        "ot",
        "h"
      ],
      [
        "a",
        "p"
      ],
      [
        "um",
        "p"
      ],
      [
        "T",
        "h"
      ],
      [
        "uc",
        "y"
      ],
      [
        "is",
        "t"
      ],
      [
        "Ġsay",
        "s"
      ],
      [
        "Ġt",
        "ried"
      ],
      [
        "Ġkn",
        "ow"
      ],
      [
        "Ġg",
        "ot"
      ],
      [
        "it",
        "ed"
      ],
      [
        "u",
        "st"
      ],
      [
        "Ġkn",
        "e"
      ],
      [
        "Ġwh",
        "o"
      ],
      [
        "Ġman",
        "y"
      ],
      [
        "nd",
        "er"
      ],
      [
        "Ġab",
        "out"
      ],
      [
        "L",
        "ily"
      ],
      [
        "Ġin",
        "t"
      ],
      [
        "Ġp",
        "ret"
      ],
      [
        "Ġan",
        "y"
      ],
      [
        "Ġd",
        "ec"
      ],
      [
        "is",
        "e"
      ],
      [
        "Ġ",
        "D"
      ],
      [
        "Ġr",
        "ed"
      ],
      [
        "i",
        "ve"
      ],
      [
        "Ġkne",
        "w"
      ],
      [
        "a",
        "ce"
      ],
      [
        "ou",
        "s"
      ],
      [
        "Ġm",
        "ore"
      ],
      [
        "Ġp",
        "ic"
      ],
      [
        "Ġ",
        "v"
      ],
      [
        "Ġh",
        "ug"
      ],
      [
        "q",
        "u"
      ],
      [
        "Ġp",
        "o"
      ],
      [
        "all",
        "y"
      ],
      [
        "Ġc",
        "are"
      ],
      [
        "a",
        "u"
      ],
      [
        "Ġwa",
        "ter"
      ],
      [
        "f",
        "ter"
      ],
      [
        "Ġbe",
        "st"
      ],
      [
        "Ġbec",
        "ame"
      ],
      [
        "Ġlearn",
        "ed"
      ],
      [
        "ĠL",
        "ucy"
      ],
      [
        "ur",
        "p"
      ],
      [
        "Ġo",
        "p"
      ],
      [
        "Ġex",
        "c"
      ],
      [
        "way",
        "s"
      ],
      [
        "Ġout",
        "side"
      ],
      [
        "au",
        "se"
      ],
      [
        "Ġg",
        "re"
      ],
      [
        "â",
        "Ģ"
      ],
      [
        "Ġal",
        "ways"
      ],
      [
        "Ġlaug",
        "hed"
      ],
      [
        "Ġsh",
        "ow"
      ],
      [
        "Ġloo",
        "k"
      ],
      [
        "Ġdec",
        "id"
      ],
      [
        "ĠB",
        "ob"
      ],
      [
        "Ġro",
        "om"
      ],
      [
        "Ġu",
        "n"
      ],
      [
        "Ġdecid",
        "ed"
      ],
      [
        "Ġh",
        "o"
      ],
      [
        "it",
        "e"
      ],
      [
        "Ġe",
        "at"
      ],
      [
        "Ġbec",
        "ause"
      ],
      [
        "Ġb",
        "oth"
      ],
      [
        "f",
        "e"
      ],
      [
        "ĠS",
        "o"
      ],
      [
        "ĠA",
        "nd"
      ],
      [
        "an",
        "t"
      ],
      [
        "Ġint",
        "o"
      ],
      [
        "ĠM",
        "om"
      ],
      [
        "Ġj",
        "ump"
      ],
      [
        "u",
        "dd"
      ],
      [
        "er",
        "s"
      ],
      [
        "Ġd",
        "ad"
      ],
      [
        "Ġp",
        "e"
      ],
      [
        "Ġ",
        "ke"
      ],
      [
        "Ġon",
        "e"
      ],
      [
        "n",
        "n"
      ],
      [
        "The",
        "y"
      ],
      [
        "Ġexc",
        "ited"
      ],
      [
        "Ġn",
        "ice"
      ],
      [
        "Ġth",
        "is"
      ],
      [
        "Ġfa",
        "st"
      ],
      [
        "Ġfe",
        "el"
      ],
      [
        "Ġl",
        "ong"
      ],
      [
        "Ġr",
        "un"
      ],
      [
        "Ġ",
        "E"
      ],
      [
        "Y",
        "es"
      ],
      [
        "T",
        "om"
      ],
      [
        "Ġs",
        "k"
      ],
      [
        "Ġa",
        "m"
      ],
      [
        "urp",
        "r"
      ],
      [
        "Ġto",
        "ld"
      ],
      [
        "ou",
        "r"
      ],
      [
        "Ġt",
        "r"
      ],
      [
        "Ġs",
        "urpr"
      ],
      [
        "Ġin",
        "side"
      ],
      [
        "Ġm",
        "o"
      ],
      [
        "in",
        "k"
      ],
      [
        "u",
        "ll"
      ],
      [
        "Ġpret",
        "ty"
      ],
      [
        "in",
        "y"
      ],
      [
        "Ġs",
        "or"
      ],
      [
        "Ġt",
        "ake"
      ],
      [
        "Ġg",
        "ra"
      ],
      [
        "W",
        "h"
      ],
      [
        "Ġs",
        "l"
      ],
      [
        "nn",
        "a"
      ],
      [
        "o",
        "g"
      ],
      [
        "Ġe",
        "ach"
      ],
      [
        "le",
        "w"
      ],
      [
        "Ġg",
        "ave"
      ],
      [
        "Ġmu",
        "ch"
      ],
      [
        "Ġst",
        "r"
      ],
      [
        "Ġh",
        "ow"
      ],
      [
        "g",
        "ed"
      ],
      [
        "Ġro",
        "ck"
      ],
      [
        "im",
        "al"
      ],
      [
        "Ġan",
        "imal"
      ],
      [
        "Ġ",
        "or"
      ],
      [
        "Ġne",
        "ed"
      ],
      [
        "Ġto",
        "w"
      ],
      [
        "B",
        "ut"
      ],
      [
        "Ġth",
        "an"
      ],
      [
        "et",
        "ter"
      ],
      [
        "ar",
        "a"
      ],
      [
        "Ġo",
        "ld"
      ],
      [
        "v",
        "en"
      ],
      [
        "Ġu",
        "nder"
      ],
      [
        "Ġ",
        "C"
      ],
      [
        "Ġsor",
        "ry"
      ],
      [
        "g",
        "e"
      ],
      [
        "es",
        "s"
      ],
      [
        "ur",
        "t"
      ],
      [
        "is",
        "ed"
      ],
      [
        "Ġwal",
        "ked"
      ],
      [
        "r",
        "o"
      ],
      [
        "Ġha",
        "nd"
      ],
      [
        "Ġc",
        "le"
      ],
      [
        "a",
        "nd"
      ],
      [
        "Ġcl",
        "o"
      ],
      [
        "Ġbe",
        "ar"
      ],
      [
        "a",
        "st"
      ],
      [
        "Ġf",
        "ish"
      ],
      [
        "a",
        "se"
      ],
      [
        "ur",
        "n"
      ],
      [
        "Ġj",
        "ust"
      ],
      [
        "Ġk",
        "ind"
      ],
      [
        "he",
        "re"
      ],
      [
        "ĠW",
        "e"
      ],
      [
        "p",
        "l"
      ],
      [
        "Ġdid",
        "n"
      ],
      [
        "ĠH",
        "is"
      ],
      [
        "Ġwa",
        "t"
      ],
      [
        "Ġfl",
        "ow"
      ],
      [
        "Ġhapp",
        "ened"
      ],
      [
        "Ġt",
        "e"
      ],
      [
        "Ġt",
        "ry"
      ],
      [
        "Ġf",
        "ood"
      ],
      [
        "Ġ",
        "ide"
      ],
      [
        "Ġsk",
        "y"
      ],
      [
        "Ġanimal",
        "s"
      ],
      [
        "Ġs",
        "n"
      ],
      [
        "Ġl",
        "ist"
      ],
      [
        "r",
        "om"
      ],
      [
        "Ġh",
        "ig"
      ],
      [
        "Ġne",
        "ar"
      ],
      [
        "in",
        "e"
      ],
      [
        "Ġf",
        "i"
      ],
      [
        "c",
        "hed"
      ],
      [
        "v",
        "ing"
      ],
      [
        "f",
        "f"
      ],
      [
        "ĠA",
        "my"
      ],
      [
        "Ġide",
        "a"
      ],
      [
        "Ġu",
        "s"
      ],
      [
        "Ġb",
        "ug"
      ],
      [
        "Ġt",
        "w"
      ],
      [
        "Ġb",
        "etter"
      ],
      [
        "Ġhe",
        "ard"
      ],
      [
        "Ġit",
        "s"
      ],
      [
        "Ġl",
        "et"
      ],
      [
        "g",
        "ry"
      ],
      [
        "Ġ",
        "en"
      ],
      [
        "ab",
        "le"
      ],
      [
        "at",
        "e"
      ],
      [
        "p",
        "ec"
      ],
      [
        "Ġsh",
        "are"
      ],
      [
        "Ġst",
        "or"
      ],
      [
        "Ġ",
        "if"
      ],
      [
        "M",
        "om"
      ],
      [
        "Ġf",
        "ly"
      ],
      [
        "ĠT",
        "h"
      ],
      [
        "Th",
        "ank"
      ],
      [
        "i",
        "al"
      ],
      [
        "Ġf",
        "lew"
      ],
      [
        "l",
        "f"
      ],
      [
        "m",
        "ore"
      ],
      [
        "Ġany",
        "more"
      ],
      [
        "Ġcare",
        "ful"
      ],
      [
        "Ġsp",
        "ec"
      ],
      [
        "Ġspec",
        "ial"
      ],
      [
        "Ġlot",
        "s"
      ],
      [
        "Ġc",
        "om"
      ],
      [
        "Ġd",
        "an"
      ],
      [
        "Ġne",
        "ver"
      ],
      [
        "i",
        "on"
      ],
      [
        "Ġb",
        "y"
      ],
      [
        "Ġf",
        "o"
      ],
      [
        "Ġd",
        "on"
      ],
      [
        "Ġw",
        "ind"
      ],
      [
        "re",
        "am"
      ],
      [
        "Ġt",
        "al"
      ],
      [
        "Ġlo",
        "ve"
      ],
      [
        "Ġcle",
        "an"
      ],
      [
        "Ġ",
        "end"
      ],
      [
        "Ġb",
        "u"
      ],
      [
        "Ġg",
        "r"
      ],
      [
        "ĠThe",
        "n"
      ],
      [
        "Ġf",
        "ore"
      ],
      [
        "Ġsh",
        "iny"
      ],
      [
        "udd",
        "en"
      ],
      [
        "Ġe",
        "ven"
      ],
      [
        "r",
        "m"
      ],
      [
        "or",
        "t"
      ],
      [
        "b",
        "er"
      ],
      [
        "Ġo",
        "ver"
      ],
      [
        "op",
        "le"
      ],
      [
        "Ġc",
        "ake"
      ],
      [
        "a",
        "k"
      ],
      [
        "Ġm",
        "ag"
      ],
      [
        "Ġh",
        "ard"
      ],
      [
        "Ġb",
        "ook"
      ],
      [
        "udden",
        "ly"
      ],
      [
        "Ġt",
        "urn"
      ],
      [
        "Ġco",
        "l"
      ],
      [
        "im",
        "b"
      ],
      [
        "Ġsa",
        "fe"
      ],
      [
        "ĠA",
        "nna"
      ],
      [
        "Ġb",
        "ad"
      ],
      [
        "Ġa",
        "fter"
      ],
      [
        "Ġf",
        "am"
      ],
      [
        "ĠE",
        "very"
      ],
      [
        "L",
        "et"
      ],
      [
        "Ġcl",
        "imb"
      ],
      [
        "ad",
        "y"
      ],
      [
        "Ġdo",
        "or"
      ],
      [
        "Ġhig",
        "h"
      ],
      [
        "Ġh",
        "urt"
      ],
      [
        "Ġg",
        "l"
      ],
      [
        "Ġc",
        "ome"
      ],
      [
        "Ġc",
        "u"
      ],
      [
        "Ġsurpr",
        "ised"
      ],
      [
        "pec",
        "ted"
      ],
      [
        "Ġpr",
        "oud"
      ],
      [
        "Ġg",
        "round"
      ],
      [
        "b",
        "b"
      ],
      [
        "Ġop",
        "ened"
      ],
      [
        "Ġpic",
        "ked"
      ],
      [
        "Ġpe",
        "ople"
      ],
      [
        "ard",
        "en"
      ],
      [
        "Ġg",
        "arden"
      ],
      [
        "Ġc",
        "he"
      ],
      [
        "il",
        "d"
      ],
      [
        "ex",
        "pected"
      ],
      [
        "Ġun",
        "expected"
      ],
      [
        "Ġl",
        "oud"
      ],
      [
        "Ġ",
        "im"
      ],
      [
        "Ġbl",
        "ue"
      ],
      [
        "'",
        "m"
      ],
      [
        "Ġwa",
        "y"
      ],
      [
        "A",
        "s"
      ],
      [
        "Ġg",
        "ive"
      ],
      [
        "Ġthan",
        "ked"
      ],
      [
        "ĠF",
        "rom"
      ],
      [
        "Ġst",
        "ill"
      ],
      [
        "Ġhug",
        "ged"
      ],
      [
        "Ġe",
        "ver"
      ],
      [
        "Ġcol",
        "or"
      ],
      [
        "ĠH",
        "er"
      ],
      [
        "Ġf",
        "ar"
      ],
      [
        "Ġc",
        "all"
      ],
      [
        "a",
        "il"
      ],
      [
        "i",
        "p"
      ],
      [
        "um",
        "my"
      ],
      [
        "N",
        "o"
      ],
      [
        "i",
        "z"
      ],
      [
        "ĠW",
        "hen"
      ],
      [
        "Ġ",
        "K"
      ],
      [
        "Ġof",
        "f"
      ],
      [
        "u",
        "ff"
      ],
      [
        "oug",
        "h"
      ],
      [
        "Ġmag",
        "ic"
      ],
      [
        "Ġk",
        "id"
      ],
      [
        "ĠS",
        "ara"
      ],
      [
        "Ġjump",
        "ed"
      ],
      [
        "Ġfam",
        "ily"
      ],
      [
        "ag",
        "e"
      ],
      [
        "Ġsm",
        "ile"
      ],
      [
        "Ġp",
        "ar"
      ],
      [
        "Ġsh",
        "ould"
      ],
      [
        "oo",
        "l"
      ],
      [
        "le",
        "s"
      ],
      [
        "Ġwal",
        "k"
      ],
      [
        "k",
        "ay"
      ],
      [
        "Ġ",
        "qu"
      ],
      [
        "ĠI",
        "n"
      ],
      [
        "he",
        "s"
      ],
      [
        "Ġpl",
        "ace"
      ],
      [
        "Ġn",
        "ow"
      ],
      [
        "Ġst",
        "ay"
      ],
      [
        "t",
        "ure"
      ],
      [
        "Ġfore",
        "st"
      ],
      [
        "e",
        "m"
      ],
      [
        "Ġgre",
        "at"
      ],
      [
        "Ġu",
        "nt"
      ],
      [
        "a",
        "ut"
      ],
      [
        "itt",
        "y"
      ],
      [
        "c",
        "t"
      ],
      [
        "Ġst",
        "o"
      ],
      [
        "Ġstr",
        "ong"
      ],
      [
        "an",
        "e"
      ],
      [
        "Ġ",
        "P"
      ],
      [
        "Ġunt",
        "il"
      ],
      [
        "Ġbe",
        "aut"
      ],
      [
        "Ġbr",
        "o"
      ],
      [
        "d",
        "y"
      ],
      [
        "Ġst",
        "ick"
      ],
      [
        "n",
        "ing"
      ],
      [
        "Ġb",
        "ra"
      ],
      [
        "Ġn",
        "ext"
      ],
      [
        "le",
        "ase"
      ],
      [
        "Ġs",
        "qu"
      ],
      [
        "Ġhapp",
        "ily"
      ],
      [
        "Ġfr",
        "og"
      ],
      [
        "Ġkid",
        "s"
      ],
      [
        "o",
        "on"
      ],
      [
        "a",
        "king"
      ],
      [
        "o",
        "y"
      ],
      [
        "t",
        "h"
      ],
      [
        "Ġa",
        "pp"
      ],
      [
        "i",
        "ful"
      ],
      [
        "i",
        "es"
      ],
      [
        "Ġbeaut",
        "iful"
      ],
      [
        "Ġshow",
        "ed"
      ],
      [
        "Ġwh",
        "ile"
      ],
      [
        "un",
        "ny"
      ],
      [
        "Ġstor",
        "y"
      ],
      [
        "Ġlist",
        "en"
      ],
      [
        "Ġclo",
        "s"
      ],
      [
        "Ġbo",
        "at"
      ],
      [
        "Ġpic",
        "ture"
      ],
      [
        "b",
        "e"
      ],
      [
        "Ġhelp",
        "ed"
      ],
      [
        "Ġim",
        "p"
      ],
      [
        "Ġtow",
        "n"
      ],
      [
        "Ġt",
        "ra"
      ],
      [
        "re",
        "l"
      ],
      [
        "Ġr",
        "ain"
      ],
      [
        "Ġd",
        "ra"
      ],
      [
        "Ġbe",
        "ing"
      ],
      [
        "re",
        "ss"
      ],
      [
        "p",
        "t"
      ],
      [
        "Ġevery",
        "one"
      ],
      [
        "ar",
        "y"
      ],
      [
        "re",
        "e"
      ],
      [
        "Ġa",
        "d"
      ],
      [
        "I",
        "t"
      ],
      [
        "Ġm",
        "or"
      ],
      [
        "Ġw",
        "o"
      ],
      [
        "Ġcall",
        "ed"
      ],
      [
        "Ġm",
        "et"
      ],
      [
        "uff",
        "y"
      ],
      [
        "Ġsto",
        "pped"
      ],
      [
        "Ġha",
        "t"
      ],
      [
        "N",
        "ow"
      ],
      [
        "C",
        "an"
      ],
      [
        "Ġre",
        "m"
      ],
      [
        "Ġg",
        "ame"
      ],
      [
        "H",
        "e"
      ],
      [
        "Ġy",
        "ummy"
      ],
      [
        "Ġs",
        "oft"
      ],
      [
        "Ġop",
        "en"
      ],
      [
        "b",
        "y"
      ],
      [
        "Ġtr",
        "uck"
      ],
      [
        "W",
        "hen"
      ],
      [
        "Ġm",
        "ouse"
      ],
      [
        "Ġb",
        "ed"
      ],
      [
        "Ġc",
        "ry"
      ],
      [
        "v",
        "ent"
      ],
      [
        "Ġke",
        "ep"
      ],
      [
        "Ġan",
        "gry"
      ],
      [
        "Ġwat",
        "ch"
      ],
      [
        "ĠK",
        "itty"
      ],
      [
        "g",
        "er"
      ],
      [
        "Ġat",
        "e"
      ],
      [
        "ĠL",
        "et"
      ],
      [
        "Ġcould",
        "n"
      ],
      [
        "Ġdo",
        "ll"
      ],
      [
        "Ġbra",
        "ve"
      ],
      [
        "ĠW",
        "h"
      ],
      [
        "Ġwa",
        "rm"
      ],
      [
        "ĠS",
        "ally"
      ],
      [
        "s",
        "o"
      ],
      [
        "Ġd",
        "e"
      ],
      [
        "Ġ",
        "R"
      ],
      [
        "f",
        "ore"
      ],
      [
        "dd",
        "ed"
      ],
      [
        "Ġal",
        "so"
      ],
      [
        "Ġlo",
        "st"
      ],
      [
        "Ġf",
        "ell"
      ],
      [
        "is",
        "hed"
      ],
      [
        "b",
        "it"
      ],
      [
        "Ġfa",
        "ce"
      ],
      [
        "Ġno",
        "ise"
      ],
      [
        "b",
        "le"
      ],
      [
        "ab",
        "bit"
      ],
      [
        "Ġtw",
        "o"
      ],
      [
        "Ġle",
        "ave"
      ],
      [
        "Ġflow",
        "ers"
      ],
      [
        "Ġgre",
        "en"
      ],
      [
        "g",
        "an"
      ],
      [
        "Ġw",
        "here"
      ],
      [
        "Wh",
        "at"
      ],
      [
        "o",
        "ck"
      ],
      [
        "ow",
        "l"
      ],
      [
        "l",
        "uffy"
      ],
      [
        "ir",
        "st"
      ],
      [
        "Ġr",
        "abbit"
      ],
      [
        "is",
        "s"
      ],
      [
        "Ġsl",
        "ide"
      ],
      [
        "Ġso",
        "on"
      ],
      [
        "se",
        "lf"
      ],
      [
        "a",
        "z"
      ],
      [
        "Ġp",
        "us"
      ],
      [
        "ill",
        "y"
      ],
      [
        "ir",
        "rel"
      ],
      [
        "Ġhand",
        "s"
      ],
      [
        "Ġhe",
        "ar"
      ],
      [
        "Ġbe",
        "fore"
      ],
      [
        "Ġex",
        "pl"
      ],
      [
        "Ġsa",
        "t"
      ]
    ]
  }
}